conv0_param_0 27.1343312808
conv1/dw_param_0 23.2944376545
conv1_param_0 21.9425684997
conv2/dw_param_0 19.6928318641
conv2_param_0 48.8967015262
conv3/dw_param_0 21.4390361661
conv3_param_0 48.847920493
conv4/dw_param_0 90.5430318409
conv4_param_0 72.4383360454
conv5/dw_param_0 21.3218941238
conv5_param_0 117.769221662
conv6/dw_param_0 37.6473632119
conv6_param_0 119.587535769
conv7/dw_param_0 27.8276505212
conv7_param_0 145.55121178
conv8/dw_param_0 25.3071462785
conv8_param_0 91.199442267
conv9/dw_param_0 30.5917900825
conv9_param_0 68.2897934839
conv10/dw_param_0 32.4263879234
conv10_param_0 83.7429915813
conv11/dw_param_0 22.3105033013
conv11_param_0 140.123323673
conv12/dw_param_0 6.2146890293
conv12_param_0 133.902477286
conv13/dw_param_0 2.69677908927
conv13_param_0 139.46880996
conv14_1_param_0 217.114642238
conv14_2_param_0 135.036341695
conv15_1_param_0 363.399615913
conv15_2_param_0 157.428430349
conv16_1_param_0 283.463748659
conv16_2_param_0 140.088296847
conv17_1_param_0 181.295474825
conv17_2_param_0 98.4925936862
conv11_mbox_loc_param_0 78.3555422285
conv11_mbox_conf_param_0 23.8404454112
conv13_mbox_loc_param_0 137.15521692
conv13_mbox_conf_param_0 20.8723271414
conv14_2_mbox_loc_param_0 148.255007027
conv14_2_mbox_conf_param_0 21.0791147728
conv15_2_mbox_loc_param_0 156.434490254
conv15_2_mbox_conf_param_0 22.8982352066
conv16_2_mbox_loc_param_0 163.664553431
conv16_2_mbox_conf_param_0 28.246942679
conv17_2_mbox_loc_param_0 262.461097438
conv17_2_mbox_conf_param_0 41.0664206634
conv0 107.917064322
conv1/dw 10.532138424
conv1 21.9416434694
conv2/dw 3.35485251977
conv2 19.1352594188
conv3/dw 3.94109612772
conv3 4.62488954004
conv4/dw 2.87940710459
conv4 15.5750504428
conv5/dw 8.15780135371
conv5 14.0849961903
conv6/dw 9.57847124518
conv6 15.8182962419
conv7/dw 9.9237328477
conv7 14.0460095128
conv8/dw 13.903240867
conv8 18.8610786631
conv9/dw 13.0795368827
conv9 20.0161981598
conv10/dw 8.87577104138
conv10 27.1766751386
conv11/dw 11.5657076371
conv11 19.8137433251
conv12/dw 20.5648193786
conv12 21.8595051265
conv13/dw 14.332347847
conv13 28.7834804442
conv14_1 5.67506694103
conv14_2 22.1640978299
conv15_1 30.1422865152
conv15_2 37.1255096136
conv16_1 22.0789146012
conv16_2 43.6278287471
conv17_1 26.3469629875
conv17_2 25.3662626522
conv11_mbox_loc 20.5648193786
conv11_mbox_conf 20.5648193786
conv13_mbox_loc 5.67506694103
conv13_mbox_conf 5.67506694103
conv14_2_mbox_loc 30.1422865152
conv14_2_mbox_conf 30.1422865152
conv15_2_mbox_loc 22.0789146012
conv15_2_mbox_conf 22.0789146012
conv16_2_mbox_loc 26.3469629875
conv16_2_mbox_conf 26.3469629875
conv17_2_mbox_loc 18.2347330972
conv17_2_mbox_conf 18.2347330972
